<unk>	0
<s>	0
</s>	0
▁de	-3.19997
▁la	-3.86262
▁que	-3.89545
▁en	-3.93715
▁el	-4.02373
▁a	-4.06471
▁y	-4.11557
▁:D	-4.19445
▁un	-4.65932
▁para	-4.77955
▁los	-4.80503
▁no	-4.80681
▁es	-4.81602
▁con	-4.85067
▁del	-4.94653
▁por	-5.09581
▁las	-5.15571
▁me	-5.19342
▁se	-5.20283
▁lo	-5.29514
▁una	-5.3423
▁-	-5.35522
▁te	-5.41586
▁juego	-5.50878
▁El	-5.54488
▁:P	-5.55049
▁al	-5.60556
▁mi	-5.78624
▁más	-5.8485
▁:p	-5.87113
▁La	-5.87594
▁si	-6.00566
▁tu	-6.04617
▁como	-6.05234
▁ya	-6.07653
▁pero	-6.16115
▁su	-6.2206
▁ha	-6.22743
▁No	-6.3248
▁vía	-6.36572
▁@YouTube	-6.41663
▁este	-6.43203
▁Me	-6.50584
▁o	-6.50724
▁yo	-6.57578
▁Los	-6.65179
▁|	-6.65907
▁Y	-6.66395
▁esta	-6.67214
▁A	-6.70559
▁son	-6.70559
▁todo	-6.70899
▁:	-6.72707
▁le	-6.72707
▁está	-6.74107
▁ser	-6.75616
▁nuevo	-6.75706
▁mejor	-6.7724
▁En	-6.77604
▁qué	-6.7797
▁hay	-6.78061
▁cuando	-6.78613
▁nos	-6.78797
▁sobre	-6.85183
▁Que	-6.86471
▁PC	-6.86571
▁Un	-6.88791
▁muy	-6.892
▁sin	-6.90333
▁tiene	-6.90645
▁todos	-6.9169
▁ver	-6.92111
▁gracias	-6.96312
▁hacer	-6.96863
▁Si	-7.00353
▁tengo	-7.00812
▁día	-7.01158
▁porque	-7.02086
▁mas	-7.06129
▁q	-7.06616
▁sus	-7.06982
▁Ya	-7.08711
▁Las	-7.0896
▁hace	-7.09712
▁ahora	-7.10343
▁va	-7.10469
▁Google	-7.11617
▁hoy	-7.12002
▁voy	-7.13559
▁Android	-7.14478
▁eso	-7.1514
▁PP	-7.16074
▁bien	-7.16342
▁puede	-7.17423
▁desde	-7.18791
▁solo	-7.22581
▁Hoy	-7.22724
▁he	-7.22868
▁xD	-7.23011
▁Este	-7.23443
▁España	-7.25631
▁ni	-7.26818
▁@sanchezcastejon	-7.27869
▁Es	-7.2802
▁Gracias	-7.28171
▁años	-7.29388
▁hasta	-7.30003
▁estoy	-7.30311
▁gente	-7.31712
▁han	-7.32816
▁Lo	-7.34574
▁Más	-7.35221
▁también	-7.35547
▁mucho	-7.36364
▁vez	-7.36529
▁pc	-7.38187
▁mis	-7.39704
▁mañana	-7.40044
▁Apple	-7.44041
▁vida	-7.44041
▁Minecraft	-7.45469
▁quiero	-7.46191
▁Yo	-7.46373
▁menos	-7.46919
▁Por	-7.47101
▁jajaja	-7.4876
▁tan	-7.49319
▁...	-7.5007
▁nada	-7.50447
▁DE	-7.51206
▁siempre	-7.51779
▁2	-7.51971
▁Se	-7.53129
▁nuestro	-7.53129
▁,	-7.53324
▁entre	-7.53324
▁@UAM_Madrid	-7.53519
▁dos	-7.54105
▁uno	-7.54892
▁días	-7.55886
▁3	-7.56889
▁algo	-7.57293
▁contra	-7.57698
▁soy	-7.5831
▁EL	-7.5872
▁vídeo	-7.60168
▁De	-7.62913
▁Juego	-7.62913
▁semana	-7.63342
▁tus	-7.63558
▁Mi	-7.6399
▁RT	-7.64423
▁10	-7.64859
▁Una	-7.65078
▁5	-7.66178
▁mal	-7.67067
▁@microsiervos	-7.67739
▁directo	-7.67964
▁jugar	-7.68189
▁video	-7.68642
▁Hola	-7.69096
▁:(	-7.69324
▁"El	-7.69553
▁Te	-7.69782
▁puedes	-7.70012
▁&lt;3	-7.70242
▁así	-7.714
▁mundo	-7.714
▁era	-7.72809
▁cosas	-7.73046
▁@marianorajoy	-7.73283
▁bueno	-7.73283
▁tener	-7.73759
▁—	-7.73759
▁jaja	-7.75201
▁nueva	-7.75687
▁espero	-7.76175
▁les	-7.76175
▁cambio	-7.76419
▁dia	-7.76419
▁donde	-7.76419
▁fue	-7.76911
▁.	-7.77405
▁4	-7.77405
▁personalizado	-7.77405
▁Así	-7.7815
▁Madrid	-7.7815
▁tiempo	-7.78901
▁Con	-7.79152
▁aquí	-7.79405
▁perfecto	-7.79405
▁Cómo	-7.80165
▁ese	-7.80165
▁ir	-7.80165
▁¿Qué	-7.81188
▁eres	-7.81704
▁poco	-7.81962
▁da	-7.82743
▁están	-7.83266
▁¿Por	-7.83529
▁Esta	-7.83792
▁año	-7.83792
▁personas	-7.83792
▁canal	-7.84322
▁"La	-7.84587
▁estar	-7.85121
▁mismo	-7.85121
▁PSOE	-7.86196
▁#UAM	-7.8701
▁quiere	-7.8701
▁Ahora	-7.87283
▁gusta	-7.87283
▁antes	-7.87556
▁Seguridad	-7.87831
▁fans	-7.87831
▁primer	-7.88658
▁noche	-7.89773
▁nuestra	-7.89773
▁gran	-7.90053
▁cada	-7.91467
▁sea	-7.91467
▁cómo	-7.92039
▁e	-7.92326
▁Cuando	-7.92902
▁os	-7.93482
▁#ForoCambio11J	-7.93773
▁esto	-7.94065
▁nunca	-7.94358
▁dice	-7.94946
▁puedo	-7.94946
▁LA	-7.95538
▁!	-7.95835
▁24h:	-7.96432
▁millones	-7.96432
▁unos	-7.96432
▁@ierrejon	-7.96732
▁Mañana	-7.96732
▁mejores	-7.97334
▁Pero	-7.97637
▁tienes	-7.97637
▁:3	-7.98245
▁Buenos	-7.98245
▁:)	-7.98856
▁buena	-7.99164
▁Para	-7.99781
▁2015	-8.00402
▁NO	-8.00402
▁sido	-8.00402
▁vamos	-8.01656
▁primera	-8.01972
▁1	-8.02607
▁política	-8.02607
▁ti	-8.02926
▁QUE	-8.03246
▁hecho	-8.03567
▁todas	-8.03567
▁llega	-8.04536
▁Rajoy	-8.05188
▁buen	-8.05188
▁esa	-8.05188
▁fin	-8.05188
▁6	-8.05515
▁EN	-8.06173
▁cuenta	-8.06173
▁tienen	-8.06173
▁creo	-8.06835
▁programa	-8.06835
▁otra	-8.07837
▁otro	-8.08173
▁país	-8.08173
▁sólo	-8.09188
▁hemos	-8.09529
▁estamos	-8.09871
▁mira	-8.09871
▁tenemos	-8.09871
▁guste	-8.10558
▁partido	-8.10558
▁será	-8.10558
▁re	-8.1125
▁casa	-8.12649
▁#UniDeVerano	-8.13001
▁(	-8.13001
▁@Pablo_Iglesias_	-8.14425
▁@chemaalonso	-8.14425
▁dormir	-8.14425
▁lado	-8.14425
▁favor,muchas	-8.14784
▁toda	-8.14784
▁Gobierno	-8.15144
▁seguir	-8.15144
▁tanto	-8.15506
▁gobierno	-8.17334
▁One	-8.17704
▁́(	-8.17704
▁The	-8.18075
▁Samsung	-8.19197
▁hora	-8.2225
▁Windows	-8.23028
▁gusta,suscríbete	-8.23028
▁feliz	-8.23813
▁igual	-8.23813
▁Como	-8.24207
▁gustado	-8.24207
▁quien	-8.24207
▁saber	-8.24207
▁#Apple	-8.254
▁@WillyrexYT	-8.25801
▁parece	-8.25801
▁podría	-8.25801
▁trabajo	-8.25801
▁Podemos	-8.26203
▁has	-8.2742
▁@vegetta777	-8.27829
▁después	-8.27829
▁sí	-8.27829
▁Hay	-8.2824
▁)	-8.28652
▁euros	-8.28652
▁alguien	-8.29066
▁van	-8.29066
▁dar	-8.299
▁amor	-8.30319
▁asi	-8.30319
▁futuro	-8.30319
▁momento	-8.30319
▁estas	-8.3074
▁realidad	-8.3074
▁falta	-8.31163
▁foto	-8.31588
▁verdad	-8.32014
▁#TrabajarHacerCrecer	-8.32872
▁ganas	-8.32872
▁pasa	-8.33304
▁somos	-8.33304
▁¿Cómo	-8.33304
▁forma	-8.34174
▁historia	-8.35051
▁móvil	-8.35051
▁nadie	-8.35051
▁&gt;	-8.35493
▁fotos	-8.35493
▁💬	-8.35493
▁tú	-8.35936
▁Pues	-8.36382
▁bonito	-8.36829
▁juegos	-8.36829
▁veces	-8.36829
▁visto	-8.37278
▁Grecia	-8.3773
▁juego,	-8.38183
▁problema	-8.38183
▁Aquí	-8.39097
▁muchas	-8.39097
▁Todo	-8.39556
▁pueden	-8.39556
▁decir	-8.40018
▁empleo	-8.40018
▁+	-8.40482
▁d	-8.40482
▁final	-8.40482
▁horas	-8.40482
▁#TuitUtil	-8.40948
▁Estoy	-8.40948
▁Nuevo	-8.40948
▁Qué	-8.40948
▁jajajaja	-8.41417
▁sigue	-8.41417
▁pues	-8.41887
▁mientras	-8.4236
▁poner	-8.4236
▁vos	-8.4236
▁podemos	-8.42835
▁youtube	-8.42835
▁parte	-8.43792
▁nuevos	-8.44274
▁#Ciencia	-8.44759
▁tarde	-8.44759
▁casi	-8.45245
▁debe	-8.45734
▁hablar	-8.46226
▁partir	-8.46226
▁!!	-8.46719
▁estos	-8.46719
▁pasado	-8.46719
▁sistema	-8.47216
▁unas	-8.47216
▁minutos	-8.47714
▁}:S	-8.47714
▁tras	-8.48216
▁¿Quieres	-8.48719
▁Tengo	-8.49226
▁seguro	-8.50246
▁amo	-8.5076
▁estaba	-8.5076
▁hijos	-8.5076
▁viene	-8.5076
▁of	-8.51277
▁queda	-8.51797
▁poder	-8.52319
▁(video)	-8.52844
▁sé	-8.53371
▁quieres	-8.53902
▁8	-8.54435
▁?	-8.54971
▁Feliz	-8.54971
▁estado	-8.54971
▁salir	-8.54971
▁sino	-8.54971
▁JUEGO	-8.55511
▁estará	-8.55511
▁datos	-8.56598
▁encanta	-8.56598
▁fuera	-8.56598
▁15	-8.57696
▁20	-8.57696
▁haciendo	-8.57696
▁Europa	-8.5825
▁He	-8.5825
▁Pedro	-8.5825
▁lindo	-8.5825
▁muchos	-8.5825
▁sabe	-8.5825
▁Al	-8.58808
▁"No	-8.59368
▁@pablocasado_	-8.59368
▁Vamos	-8.59368
▁sale	-8.59368
▁vas	-8.59368
▁Microsoft	-8.61067
▁cerebro	-8.61067
▁domingo	-8.61067
▁juego.	-8.61067
▁Play	-8.61641
▁ante	-8.61641
▁llegar	-8.61641
▁Quiero	-8.62217
▁mujeres	-8.62217
▁Mod	-8.62797
▁políticas	-8.62797
▁@PSOE	-8.6338
▁ganar	-8.6338
▁paso	-8.6338
▁siento	-8.6338
▁#destacada	-8.63966
▁tres	-8.63966
▁7	-8.64556
▁deja	-8.64556
▁disponible	-8.64556
▁durante	-8.64556
▁otros	-8.64556
▁tal	-8.64556
▁9	-8.6515
▁PARA	-8.6515
▁Xbox	-8.6515
▁UAM	-8.65747
▁elecciones	-8.65747
▁Nos	-8.66347
▁veo	-8.66347
▁último	-8.66347
▁breve	-8.66952
▁esos	-8.67559
▁haber	-8.68171
▁Episodio	-8.68787
▁cara	-8.68787
▁hacen	-8.68787
▁lista	-8.68787
▁nuestros	-8.68787
▁lunes	-8.69406
▁0	-8.70029
▁Voy	-8.70029
▁dijo	-8.70029
▁equipo	-8.70029
▁estás	-8.70029
▁reforma	-8.70029
▁(y	-8.70656
▁Jajaja	-8.70656
▁cambiar	-8.70656
▁hago	-8.70656
▁aunque	-8.71287
▁dinero	-8.71287
▁proyecto	-8.71287
▁LOS	-8.71922
▁aún	-8.71922
▁https://t.co/Y9TLhFa0GW	-8.71922
▁nosotros	-8.71922
▁versión	-8.71922
▁videos,seguro	-8.71922
▁#VotaPP	-8.72561
▁XD	-8.72561
▁algún	-8.72561
▁volver	-8.73204
▁Esto	-8.73851
▁Galaxy	-8.73851
▁acuerdo	-8.73851
▁derechos	-8.73851
▁Hasta	-8.74502
▁Tu	-8.74502
▁digo	-8.74502
▁PS4	-8.75158
▁luego	-8.75158
▁posible	-8.75158
▁ve	-8.75158
▁"En	-8.75818
▁Twitter	-8.75818
▁mayor	-8.75818
▁no,	-8.75818
▁social	-8.75818
▁Espero	-8.76483
▁X	-8.76483
▁españoles	-8.76483
▁pone	-8.76483
▁próximo	-8.76483
▁I	-8.77151
▁nuevas	-8.77151
▁Muy	-8.77825
▁mujer	-8.77825
▁seguridad	-8.77825
▁cualquier	-8.78503
▁iOS	-8.78503
▁sabes	-8.78503
▁seguirme,	-8.78503
▁web	-8.78503
▁Facebook	-8.79185
▁Porque	-8.79185
▁Soy	-8.79185
▁dejar	-8.79185
▁único	-8.79185
▁Internet	-8.79873
▁ayer	-8.79873
▁peor	-8.79873
▁&amp;	-8.80565
▁GTA	-8.80565
▁comprar	-8.80565
▁punto	-8.80565
▁amigos	-8.81262
▁haya	-8.81262
▁nuestras	-8.81262
▁queremos	-8.81262
▁tipo	-8.81262
▁vistazo	-8.81262
▁voto	-8.81262
▁x	-8.81262
▁Buen	-8.8267
▁amigo	-8.8267
▁aplicaciones	-8.8267
▁votar	-8.8267
▁Eso	-8.83382
▁ME	-8.83382
▁favor	-8.83382
▁niños	-8.83382
▁persona	-8.83382
▁30	-8.84821
▁meses	-8.84821
▁pantalla	-8.84821
▁viendo	-8.84821
▁UN	-8.85548
▁mesa	-8.85548
▁mierda	-8.85548
▁problemas	-8.85548
▁gustó	-8.86281
▁pasar	-8.86281
▁votada	-8.86281
▁corrupción	-8.87762
▁grandes	-8.87762
▁in	-8.87762
▁Os	-8.88511
▁Sigue	-8.88511
▁grande	-8.88511
▁según	-8.88511
▁..	-8.89266
▁Buenas	-8.89266
▁ah	-8.89266
▁!!!	-8.90026
▁@Dowrow	-8.90026
▁aplicación	-8.90026
▁coche	-8.90026
▁crear	-8.90026
▁iPhone	-8.90026
▁jugando	-8.90026
▁mes	-8.90026
▁via	-8.90026
▁@PPopular	-8.90793
▁ahí	-8.90793
▁caso	-8.90793
▁cosa	-8.90793
▁cumple	-8.90793
▁funciona	-8.90793
▁gratis	-8.90793
▁hombre	-8.90793
▁agua	-8.91565
▁follow	-8.91565
▁música	-8.91565
▁Comienza	-8.92343
▁leída	-8.92343
▁pierdas	-8.92343
▁siendo	-8.92343
▁app	-8.93127
▁claro	-8.93127
▁devuelvo	-8.93127
▁llegará	-8.93127
▁Black	-8.93918
▁noches	-8.93918
▁sería	-8.93918
▁12	-8.94715
▁O	-8.94715
▁ella	-8.94715
▁lugar	-8.94715
▁mayoría	-8.94715
▁pueblo	-8.94715
▁DEL	-8.95518
▁TE	-8.95518
▁jóvenes	-8.95518
▁luz	-8.95518
▁verano	-8.95518
▁comer	-8.96328
▁debería	-8.96328
▁jajajajaja	-8.96328
▁mano	-8.96328
▁recuperación	-8.96328
▁OS	-8.97144
▁aquí:	-8.97144
▁conferencia	-8.97144
▁idea	-8.97144
▁suerte	-8.97144
▁usar	-8.97144
▁♥	-8.97144
▁Estado	-8.97967
▁apoyo	-8.97967
▁buenos	-8.97967
▁campaña	-8.97967
▁había	-8.97967
▁medio	-8.97967
▁quieren	-8.97967
▁Bueno	-8.98797
▁cabeza	-8.98797
▁dentro	-8.98797
▁mucha	-8.98797
▁nombre	-8.98797
▁virtual	-8.98797
▁"Los	-8.99634
▁@bysTaXx	-8.99634
▁Todos	-8.99634
▁modelo	-8.99634
▁serie	-8.99634
▁13	-9.00478
▁:D.	-9.00478
▁DIRECTO	-9.00478
▁LG	-9.00478
▁^^	-9.00478
▁dan	-9.00478
▁electoral	-9.00478
▁estudiar	-9.00478
▁lleva	-9.00478
▁modo	-9.00478
▁vaya	-9.00478
▁Puedes	-9.01329
▁genial	-9.01329
▁hagas	-9.01329
▁Creo	-9.02187
▁Descubren	-9.02187
▁Muchas	-9.02187
▁comentada	-9.02187
▁debate	-9.02187
▁dicen	-9.02187
▁teléfono	-9.02187
▁viernes	-9.02187
▁:O	-9.03053
▁Solo	-9.03053
▁acabo	-9.03053
▁beta	-9.03053
▁ellos	-9.03053
▁empiece	-9.03053
▁habla	-9.03053
▁(:	-9.03926
▁@Irene_Montero_	-9.03926
▁Ley	-9.03926
▁dias	-9.03926
▁galletas	-9.03926
▁miedo	-9.03926
▁quién	-9.03926
▁😂	-9.03926
▁Nuestro	-9.04807
▁Saludos	-9.04807
▁cámara	-9.04807
▁llama	-9.04807
▁madre	-9.04807
▁otras	-9.04807
▁sigo	-9.04807
▁Siempre	-9.05696
▁corazón	-9.05696
▁empezar	-9.05696
▁familia	-9.05696
▁importante	-9.05696
▁leer	-9.05696
▁necesita	-9.05696
▁presenta	-9.05696
▁vivir	-9.05696
▁#RdPPodemos	-9.06593
▁@pnique	-9.06593
▁Le	-9.06593
▁Nena,	-9.06593
▁tendrá	-9.06593
▁the	-9.06593
▁¿Te	-9.06593
▁ayuda	-9.07498
▁buenas	-9.07498
▁información	-9.07498
▁prensa	-9.07498
▁socialistas	-9.07498
▁:D.https://t.co/dzilYhTytB	-9.08411
▁Minecraft:	-9.08411
▁Sánchez	-9.08411
▁alguna	-9.08411
▁pensar	-9.08411
▁Ops	-9.09333
▁}:O	-9.09333
▁Del	-9.10263
▁Gran	-9.10263
▁Sony	-9.10263
▁[ENG]	-9.10263
▁frente	-9.10263
▁ley	-9.10263
▁sueño	-9.10263
▁voz	-9.10263
▁¡No	-9.10263
▁Desde	-9.11202
▁Hemos	-9.11202
▁MI	-9.11202
▁ciencia	-9.11202
▁curso	-9.11202
▁hizo	-9.11202
▁mejorar	-9.11202
▁riesgo	-9.11202
▁salud	-9.11202
▁vi	-9.11202
▁ARK:	-9.1215
▁acto	-9.1215
▁dicho	-9.1215
▁manera	-9.1215
▁permite	-9.1215
▁pronto	-9.1215
▁vale	-9.1215
▁100	-9.13107
▁ES	-9.13107
▁Mira	-9.13107
▁#digoSIvotoPSOE	-9.14073
▁24	-9.14073
▁Survival	-9.14073
▁Universidad	-9.14073
▁abierto	-9.14073
▁dado	-9.14073
▁español	-9.14073
▁grupo	-9.14073
▁iba	-9.14073
▁toca	-9.14073
▁vídeos	-9.14073
▁última	-9.14073
▁=	-9.15049
▁Blog	-9.15049
▁Eleven	-9.15049
▁empieza	-9.15049
▁puesto	-9.15049
▁verme	-9.15049
▁#APOCALIPSISMINECRAFT4	-9.16034
▁#GobernarParaLaMayoría	-9.16034
▁#RutaDelCambio	-9.16034
▁CON	-9.16034
▁acaba	-9.16034
▁bueno,	-9.16034
▁derecho	-9.16034
▁escuchar	-9.16034
▁hablando	-9.16034
▁haces	-9.16034
▁lucha	-9.16034
▁paro	-9.16034
▁pide	-9.16034
▁rato	-9.16034
▁sociales	-9.16034
▁Carmena	-9.17029
▁POR	-9.17029
▁Paths	-9.17029
▁info:	-9.17029
▁libro	-9.17029
▁real	-9.17029
▁tenga	-9.17029
▁"	-9.18034
▁@ALevySoler	-9.18034
▁c/	-9.18034
▁cine	-9.18034
▁conocer	-9.18034
▁democracia	-9.18034
▁espacio	-9.18034
▁partidos	-9.18034
▁trabajar	-9.18034
▁vuelta	-9.18034
▁#FelizMiercoles	-9.19049
▁#xelFuturodeEspaña	-9.19049
▁3D	-9.19049
▁Conoce	-9.19049
▁Moto	-9.19049
▁acabar	-9.19049
▁aprender	-9.19049
▁ciudadanos	-9.19049
▁habrá	-9.19049
▁mala	-9.19049
▁medidas	-9.19049
▁mil	-9.19049
▁saludos	-9.19049
▁Bueno,	-9.20075
▁HTC	-9.20075
▁Nueva	-9.20075
▁TV	-9.20075
▁acción	-9.20075
▁amiga	-9.20075
▁anuncia	-9.20075
▁conmigo?	-9.20075
▁cuentas	-9.20075
▁deberías	-9.20075
▁media	-9.20075
▁sos	-9.20075
▁tambien	-9.20075
▁tema	-9.20075
▁vuelve	-9.20075
▁chica	-9.21111
▁imágenes	-9.21111
▁ningún	-9.21111
▁primero	-9.21111
▁tenía	-9.21111
▁–	-9.21111
▁Cada	-9.22158
▁Congreso	-9.22158
▁Dios	-9.22158
▁Gameplay	-9.22158
▁Hace	-9.22158
▁San	-9.22158
▁chatear	-9.22158
▁entonces	-9.22158
▁griego	-9.22158
▁pa	-9.22158
▁ven	-9.22158
▁#WTF	-9.23217
▁11	-9.23217
▁Estamos	-9.23217
▁Mas	-9.23217
▁Somos	-9.23217
▁algunos	-9.23217
▁días!	-9.23217
▁hacia	-9.23217
▁https://t.co/kxWwWbwHhI	-9.23217
▁móviles	-9.23217
▁plazo	-9.23217
▁través	-9.23217
▁vacaciones	-9.23217
▁vemos	-9.23217
▁@ahorapodemos	-9.24286
▁debes	-9.24286
▁ministro	-9.24286
▁"Las	-9.25367
▁;-)	-9.25367
▁Ni	-9.25367
▁Partido	-9.25367
▁clases	-9.25367
▁despues	-9.25367
▁esas	-9.25367
▁especial	-9.25367
▁tomar	-9.25367
▁uso	-9.25367
▁́)	-9.25367
▁"Hay	-9.2646
▁bastante	-9.2646
▁chicas	-9.2646
▁crisis	-9.2646
▁imagen	-9.2646
▁pena	-9.2646
▁segundo	-9.2646
▁#OSX	-9.27565
▁Día	-9.27565
▁NUEVO	-9.27565
▁V	-9.27565
▁edición	-9.27565
▁entrevista	-9.27565
▁http://t.co/WJOlv7DGr2	-9.27565
▁linda	-9.27565
▁mí	-9.27565
▁niño	-9.27565
▁online	-9.27565
▁quienes	-9.27565
▁sentido	-9.27565
▁17	-9.28683
▁Evolved	-9.28683
▁Nunca	-9.28683
▁hice	-9.28683
▁pase	-9.28683
▁político	-9.28683
▁pregunta	-9.28683
▁servicios	-9.28683
▁vs	-9.28683
▁#Orgullo2015	-9.29812
▁Star	-9.29812
▁YouTube	-9.29812
▁bonita	-9.29812
▁camino	-9.29812
▁cerca	-9.29812
▁encontrar	-9.29812
▁primarias	-9.29812
▁propio	-9.29812
▁servicio	-9.29812
▁twitter	-9.29812
▁Pablo	-9.30955
▁comienza	-9.30955
▁llevar	-9.30955
▁no?	-9.30955
▁sTaXx	-9.30955
▁S6	-9.32111
▁calidad	-9.32111
▁dejo	-9.32111
▁extraño	-9.32111
▁http://t.co/CwscwXkPCC	-9.32111
▁ido	-9.32111
▁jajaj	-9.32111
▁maquillar	-9.32111
▁sacar	-9.32111
▁segunda	-9.32111
▁sociedad	-9.32111
▁sí,	-9.32111
▁#CMin	-9.33281
▁25	-9.33281
▁:*	-9.33281
▁café	-9.33281
▁capaz	-9.33281
▁dolor	-9.33281
▁hombres	-9.33281
▁ordenador	-9.33281
▁preguntas	-9.33281
▁presidente	-9.33281
▁tampoco	-9.33281
▁#ciencia	-9.34464
▁Amazon	-9.34464
▁aun	-9.34464
▁bajo	-9.34464
▁busca	-9.34464
▁educación	-9.34464
▁esperar	-9.34464
▁gracia	-9.34464
▁libertad	-9.34464
▁memoria	-9.34464
▁red	-9.34464
▁él	-9.34464
▁única	-9.34464
▁Call	-9.35662
▁Conferencia	-9.35662
▁Nuestra	-9.35662
▁SE	-9.35662
▁Watch	-9.35662
▁código	-9.35662
▁demasiado	-9.35662
▁empresas	-9.35662
▁encima	-9.35662
▁estilo	-9.35662
▁libros	-9.35662
▁mayo	-9.35662
▁padres	-9.35662
▁puta	-9.35662
▁resto	-9.35662
▁sean	-9.35662
▁usuarios	-9.35662
▁#MTVHottest	-9.36874
▁@RamonEspinar	-9.36874
▁Garry`s	-9.36874
▁alta	-9.36874
▁apps	-9.36874
▁cie	-9.36874
▁fuerza	-9.36874
▁hijo	-9.36874
▁importa	-9.36874
▁instituciones	-9.36874
▁jejej	-9.36874
▁nivel	-9.36874
▁subir	-9.36874
▁tenido	-9.36874
▁videos	-9.36874
▁2014	-9.38101
▁Jaja	-9.38101
▁Son	-9.38101
▁Tenemos	-9.38101
▁clase	-9.38101
▁cual	-9.38101
▁pedir	-9.38101
▁precio	-9.38101
▁si,	-9.38101
▁situación	-9.38101
▁18	-9.39343
▁:/	-9.39343
▁@AHernandoVera	-9.39343
▁@mdcospedal	-9.39343
▁PC,	-9.39343
▁calle	-9.39343
▁cumpleaños	-9.39343
▁tecnología	-9.39343
▁todavía	-9.39343
▁¿Cuál	-9.39343
▁#VotaPSOE	-9.40601
▁LO	-9.40601
▁Lucky	-9.40601
▁OnePlus	-9.40601
▁cuanto	-9.40601
▁entrar	-9.40601
▁lanza	-9.40601
▁mando	-9.40601
▁objetivo	-9.40601
▁rueda	-9.40601
▁¿Que	-9.40601
▁"Es	-9.41875
▁clave	-9.41875
▁echale	-9.41875
▁economía	-9.41875
▁gracias!	-9.41875
▁hola	-9.41875
▁juego:	-9.41875
▁misma	-9.41875
▁novia	-9.41875
▁relación	-9.41875
▁¡Buenos	-9.41875
▁¡Feliz	-9.41875
▁50	-9.43166
▁José	-9.43166
▁cultura	-9.43166
▁de...	-9.43166
▁dólares	-9.43166
▁esperando	-9.43166
▁igualdad	-9.43166
▁película	-9.43166
▁prueba	-9.43166
▁pública	-9.43166
▁rápido	-9.43166
▁sabemos	-9.43166
▁smartphone	-9.43166
▁tengas	-9.43166
▁tuit	-9.43166
▁éxito	-9.43166
▁#ColorPSOE	-9.44473
▁#PSOE24M	-9.44473
▁#iOS	-9.44473
▁HAPPY	-9.44473
▁M	-9.44473
▁buscar	-9.44473
▁ciudadanía	-9.44473
▁conseguido	-9.44473
▁deuda	-9.44473
▁gusto	-9.44473
▁haga	-9.44473
▁perder	-9.44473
▁reunión	-9.44473
▁usted	-9.44473
▁#GobernarParaLaMayoria	-9.45797
▁@feminoacid	-9.45797
▁Destacado:	-9.45797
▁Eres	-9.45797
▁doble	-9.45797
▁financiación	-9.45797
▁fácil	-9.45797
▁gana	-9.45797
▁junto	-9.45797
▁número	-9.45797
▁participar	-9.45797
▁presentación	-9.45797
▁#DesayunosTVE	-9.4714
▁Ese	-9.4714
▁FAV	-9.4714
▁Nexus	-9.4714
▁algun	-9.4714
▁comida	-9.4714
▁energía	-9.4714
▁fuerte	-9.4714
▁gustaría	-9.4714
▁llegado	-9.4714
▁llegue	-9.4714
▁pequeño	-9.4714
▁redes	-9.4714
▁&gt;&gt;&gt;	-9.485
▁@JoseManuel_Lop	-9.485
▁@Rubiu5	-9.485
▁@gerigrinerd	-9.485
▁No,	-9.485
▁WHEELS:	-9.485
▁batería	-9.485
▁cama	-9.485
▁gobiernos	-9.485
▁padre	-9.485
▁próxima	-9.485
▁quedo	-9.485
▁tweet.	-9.485
▁#ColaboraConPodemos	-9.4988
▁Internacional	-9.4988
▁estudiantes	-9.4988
▁inicio	-9.4988
▁izquierda	-9.4988
▁malo	-9.4988
▁manos	-9.4988
▁mitad	-9.4988
▁nada,	-9.4988
▁super	-9.4988
▁trabajando	-9.4988
▁últimos	-9.4988
▁"Lo	-9.51278
▁14	-9.51278
▁@mariagv	-9.51278
▁Madrid.	-9.51278
▁Plutón	-9.51278
▁alcalde	-9.51278
▁canción	-9.51278
▁construir	-9.51278
▁creación	-9.51278
▁grabar	-9.51278
▁julio	-9.51278
▁muestra	-9.51278
▁pueda	-9.51278
▁recuperar	-9.51278
▁16	-9.52697
▁EPISODIO	-9.52697
▁Estos	-9.52697
▁accesorios	-9.52697
▁caja	-9.52697
▁consejos	-9.52697
▁crecimiento	-9.52697
▁deben	-9.52697
▁empresa	-9.52697
▁excelente	-9.52697
▁experiencia	-9.52697
▁habitación	-9.52697
▁internet	-9.52697
▁necesito	-9.52697
▁proceso	-9.52697
▁sábado	-9.52697
▁verlo	-9.52697
▁¿Es	-9.52697
▁40	-9.54136
▁Estas	-9.54136
▁Foro	-9.54136
▁aqui	-9.54136
▁centro	-9.54136
▁culpa	-9.54136
▁duele	-9.54136
▁económica	-9.54136
▁ejemplo	-9.54136
▁muerte	-9.54136
▁noticia	-9.54136
▁saben	-9.54136
▁sanidad	-9.54136
▁violencia	-9.54136
▁¿Y	-9.54136
▁#PGE2016	-9.55595
▁:D.https://t.co/AbcdjNAZ6R	-9.55595
▁@JaviPolo91	-9.55595
▁Xiaomi	-9.55595
▁baja	-9.55595
▁cambios	-9.55595
▁contigo	-9.55595
▁elegido	-9.55595
▁entra	-9.55595
▁escribir	-9.55595
▁esperamos	-9.55595
▁estrena	-9.55595
▁evitar	-9.55595
▁fui	-9.55595
▁llevo	-9.55595
▁papel	-9.55595
▁pierdas!	-9.55595
▁propuestas	-9.55595
▁vida.	-9.55595
▁@MayoralRafa	-9.57077
▁@el_pais	-9.57077
▁Alguien	-9.57077
▁Ayer	-9.57077
▁Big	-9.57077
▁Jajajaja	-9.57077
▁Justin	-9.57077
▁MÁS	-9.57077
▁PlayStation	-9.57077
▁Store	-9.57077
▁descargar	-9.57077
▁diferencia	-9.57077
▁estudios	-9.57077
▁gustan	-9.57077
▁ideas	-9.57077
▁intervención	-9.57077
▁jueves	-9.57077
▁mensaje	-9.57077
▁momentos	-9.57077
▁no.	-9.57077
▁oferta	-9.57077
▁perdido	-9.57077
▁vivo	-9.57077
▁2016	-9.58581
▁AL	-9.58581
▁Cataluña	-9.58581
▁LAS	-9.58581
▁Online	-9.58581
▁SI	-9.58581
▁SORTEO	-9.58581
▁Sin	-9.58581
▁UE	-9.58581
▁ciudad	-9.58581
▁color	-9.58581
▁deporte	-9.58581
▁fecha	-9.58581
▁gobernar	-9.58581
▁libre	-9.58581
▁listo	-9.58581
▁palabra	-9.58581
▁películas	-9.58581
▁prácticas	-9.58581
▁ps4	-9.58581
▁qe	-9.58581
▁serio	-9.58581
▁terminar	-9.58581
▁viaje	-9.58581
▁@JavierMaroto	-9.60107
▁Direction	-9.60107
▁Fue	-9.60107
▁Juegos	-9.60107
▁Nada	-9.60107
▁Programa	-9.60107
▁VEGETTA	-9.60107
▁WhatsApp	-9.60107
▁ayudar	-9.60107
▁bien,	-9.60107
▁compra	-9.60107
▁cuatro	-9.60107
▁cuerpo	-9.60107
▁esté	-9.60107
▁finde	-9.60107
▁justo	-9.60107
▁llegan	-9.60107
▁loco	-9.60107
▁quedan	-9.60107
▁resultados	-9.60107
▁saga	-9.60107
▁saludo	-9.60107
▁sonrisa	-9.60107
▁ustedes	-9.60107
▁@UAM_Gazette	-9.61658
▁@martinezmaillo	-9.61658
▁China	-9.61658
▁Curso	-9.61658
▁G	-9.61658
▁PP,	-9.61658
▁Popular	-9.61658
▁Queremos	-9.61658
▁carga	-9.61658
▁cáncer	-9.61658
▁evento	-9.61658
▁jajajaj	-9.61658
▁ojos	-9.61658
▁pacto	-9.61658
▁plan	-9.61658
▁propuesta	-9.61658
▁razones	-9.61658
▁septiembre	-9.61658
▁trata	-9.61658
▁venir	-9.61658
▁"Si	-9.63233
▁#digoSÍvotoPSOE	-9.63233
▁.Un	-9.63233
▁Mientras	-9.63233
▁Tierra	-9.63233
▁además	-9.63233
▁canciones	-9.63233
▁dale	-9.63233
▁das	-9.63233
▁estudio	-9.63233
▁pongo	-9.63233
▁puntos	-9.63233
▁sirve	-9.63233
▁Consejo	-9.64833
▁Mis	-9.64833
▁abrir	-9.64833
▁ahi	-9.64833
▁allá	-9.64833
▁dando	-9.64833
▁diciendo	-9.64833
▁entiendo	-9.64833
▁esfuerzo	-9.64833
▁española	-9.64833
▁mejora	-9.64833
▁palabras	-9.64833
▁puto	-9.64833
▁público	-9.64833
▁}:D	-9.64833
▁&gt;:D	-9.66459
▁-.-	-9.66459
▁App	-9.66459
▁Aunque	-9.66459
▁Ayuntamiento	-9.66459
▁ONLINE	-9.66459
▁abre	-9.66459
▁beneficios	-9.66459
▁cierto	-9.66459
▁hermano	-9.66459
▁inteligente	-9.66459
▁oficial	-9.66459
▁par	-9.66459
▁profesor	-9.66459
▁sitio	-9.66459
▁xd	-9.66459
▁Después	-9.68112
▁Felicidades	-9.68112
▁Plus	-9.68112
▁dónde	-9.68112
▁estaré	-9.68112
▁hará	-9.68112
▁humor	-9.68112
▁llevan	-9.68112
▁martes	-9.68112
▁onda	-9.68112
▁pensando	-9.68112
▁realmente	-9.68112
▁reformas	-9.68112
▁regalo	-9.68112
▁sera	-9.68112
▁señor	-9.68112
▁teléfonos	-9.68112
▁#Latch	-9.69792
▁--&gt;	-9.69792
▁26	-9.69792
▁@ccifuentes	-9.69792
▁Dos	-9.69792
▁John	-9.69792
▁PC!	-9.69792
▁Quien	-9.69792
▁Sólo	-9.69792
▁completo	-9.69792
▁conseguir	-9.69792
▁dije	-9.69792
▁doy	-9.69792
▁duro	-9.69792
▁económico	-9.69792
▁encuentro	-9.69792
▁eran	-9.69792
▁error	-9.69792
▁estrategia	-9.69792
▁felicidad	-9.69792
▁gestión	-9.69792
▁https://t.co/YFVO4gCgij	-9.69792
▁joven	-9.69792
▁ninguna	-9.69792
▁peli	-9.69792
▁pelo	-9.69792
▁reloj	-9.69792
▁risa	-9.69792
▁¡He	-9.69792
▁#DIMINUTOS2	-9.71502
▁2:	-9.71502
▁@cesarluena	-9.71502
▁España.	-9.71502
▁HOY	-9.71502
▁Latch	-9.71502
▁NASA	-9.71502
▁Nacional	-9.71502
▁Note	-9.71502
▁UAM!	-9.71502
▁UNA	-9.71502
▁YA	-9.71502
▁alternativa	-9.71502
▁artículo	-9.71502
▁base	-9.71502
▁deje	-9.71502
▁diga	-9.71502
▁largo	-9.71502
▁mama	-9.71502
▁marcha	-9.71502
▁primeros	-9.71502
▁proyectos	-9.71502
▁quede	-9.71502
▁recortes	-9.71502
▁recuerda	-9.71502
▁serán	-9.71502
▁sol	-9.71502
▁sola	-9.71502
▁temporada	-9.71502
▁@FyL_UAM	-9.73241
▁Carlos	-9.73241
▁España,	-9.73241
▁Javier	-9.73241
▁Rato	-9.73241
▁coches	-9.73241
▁control	-9.73241
▁disfrutar	-9.73241
▁hermosa	-9.73241
▁http://t.co/08eZ0fzjAi	-9.73241
▁medios	-9.73241
▁mola	-9.73241
▁perro	-9.73241
▁pobreza	-9.73241
▁pocos	-9.73241
▁podrá	-9.73241
▁sesión	-9.73241
▁sexo	-9.73241
▁súper	-9.73241
▁trabajadores	-9.73241
▁vuelto	-9.73241
▁víctimas	-9.73241
▁.@pablocasado_	-9.75011
▁:D!	-9.75011
▁@derecho_uam	-9.75011
▁@pbustinduy	-9.75011
▁Acabo	-9.75011
▁Ah	-9.75011
▁Bieber	-9.75011
▁Chrome	-9.75011
▁Duty:	-9.75011
▁EEUU	-9.75011
▁Juan	-9.75011
▁Mejor	-9.75011
▁Motorola	-9.75011
▁New	-9.75011
▁Nokia	-9.75011
▁Wear	-9.75011
▁bandera	-9.75011
▁darle	-9.75011
▁entrada	-9.75011
▁gama	-9.75011
▁programas	-9.75011
▁quieras	-9.75011
▁.@marianorajoy	-9.76813
▁/	-9.76813
▁19	-9.76813
▁21	-9.76813
▁@c_floriano	-9.76813
▁Bien	-9.76813
▁D:	-9.76813
▁Esa	-9.76813
▁Luis	-9.76813
▁abrazo	-9.76813
▁carrera	-9.76813
▁compromiso	-9.76813
▁crea	-9.76813
▁existe	-9.76813
▁fiscal	-9.76813
▁gameplay	-9.76813
▁ilusión	-9.76813
▁instalar	-9.76813
▁normal	-9.76813
▁novio	-9.76813
▁odio	-9.76813
▁podrás	-9.76813
▁poquito	-9.76813
▁recuerdo	-9.76813
▁solidaridad	-9.76813
▁tenes	-9.76813
▁toma	-9.76813
▁tratar	-9.76813
▁triste	-9.76813
▁3:	-9.78648
▁Andalucía	-9.78648
▁Ciudadanos	-9.78648
▁Mario	-9.78648
▁afecta	-9.78648
▁anda	-9.78648
▁clausura	-9.78648
▁cuesta	-9.78648
▁dios	-9.78648
▁espera	-9.78648
▁favorito	-9.78648
▁física	-9.78648
▁gato	-9.78648
▁hermoso	-9.78648
▁impuestos	-9.78648
▁nota	-9.78648
▁ofrece	-9.78648
▁oportunidad	-9.78648
▁quería	-9.78648
▁segundos	-9.78648
▁tablet	-9.78648
▁verte	-9.78648
▁ves	-9.78648
▁#DebateTM	-9.80517
▁22	-9.80517
▁@TownGamePlay	-9.80517
▁ABIERTO	-9.80517
▁Está	-9.80517
▁JAJAJA	-9.80517
▁Primera	-9.80517
▁QUIERAS	-9.80517
▁chicos	-9.80517
▁común	-9.80517
▁defender	-9.80517
▁difícil	-9.80517
▁día.	-9.80517
▁entrega	-9.80517
▁estan	-9.80517
▁hacerlo	-9.80517
▁hoy,	-9.80517
▁interior	-9.80517
▁juntos	-9.80517
▁llego	-9.80517
▁logro	-9.80517
▁mundial	-9.80517
▁necesitas	-9.80517
▁noticias	-9.80517
▁smartphones	-9.80517
▁tengan	-9.80517
▁visita	-9.80517
▁@Astrocosas	-9.82422
▁@E1Am1g01nf0rma1	-9.82422
▁Blocks	-9.82422
▁GATO	-9.82422
▁GRACIAS	-9.82422
▁Monster	-9.82422
▁Premio	-9.82422
▁Q	-9.82422
▁Semana	-9.82422
▁banda	-9.82422
▁convierte	-9.82422
▁cree	-9.82422
▁divertido	-9.82422
▁efecto	-9.82422
▁escuela	-9.82422
▁fiesta	-9.82422
▁formación	-9.82422
▁gratuito	-9.82422
▁http://t.co/MVt7JTx7fY	-9.82422
▁informática	-9.82422
▁jeje	-9.82422
▁marca	-9.82422
▁pc,	-9.82422
▁políticos	-9.82422
▁seguirme	-9.82422
▁streaming	-9.82422
▁tanta	-9.82422
▁varios	-9.82422
▁votado	-9.82422
▁¿Quién	-9.82422
▁@OPEUAM	-9.84364
▁@garnachod	-9.84364
▁@pascualsergio	-9.84364
▁Barcelona	-9.84364
▁Epic	-9.84364
▁Fernández	-9.84364
▁GAMER,	-9.84364
▁Hola,	-9.84364
▁Huawei	-9.84364
▁Lollipop	-9.84364
▁Mejorando	-9.84364
▁PC.	-9.84364
▁Púnica	-9.84364
▁Real	-9.84364
▁Super	-9.84364
▁Sí,	-9.84364
▁algunas	-9.84364
▁análisis	-9.84364
▁bajar	-9.84364
▁cae	-9.84364
▁colegio	-9.84364
▁fondo	-9.84364
▁ganado	-9.84364
▁hacemos	-9.84364
▁juega	-9.84364
▁lleno	-9.84364
▁mensajes	-9.84364
▁necesario	-9.84364
▁oficiales	-9.84364
▁pagar	-9.84364
▁salga	-9.84364
▁significa	-9.84364
▁suena	-9.84364
▁to	-9.84364
▁tweet	-9.84364
▁vienen	-9.84364
▁volverá	-9.84364
▁¿A	-9.84364
▁"Hemos	-9.86344
▁4K	-9.86344
▁@IsabelValdesque	-9.86344
▁Aguirre	-9.86344
▁Les	-9.86344
▁PP.	-9.86344
▁Parece	-9.86344
▁Project	-9.86344
▁SMITE	-9.86344
▁acceso	-9.86344
▁candidato	-9.86344
▁causa	-9.86344
▁derecha	-9.86344
▁detalles	-9.86344
▁diciembre	-9.86344
▁disco	-9.86344
▁ejercicio	-9.86344
▁elegir	-9.86344
▁en:	-9.86344
▁gente.	-9.86344
▁i	-9.86344
▁junio	-9.86344
▁laboral	-9.86344
▁mente	-9.86344
▁mirar	-9.86344
▁paga	-9.86344
▁participación	-9.86344
▁playa	-9.86344
▁puerta	-9.86344
▁razón	-9.86344
▁recibe	-9.86344
▁rol	-9.86344
▁#Madrid	-9.88364
▁:v	-9.88364
▁@0xWORD	-9.88364
▁@ElevenPaths	-9.88364
▁@trolerotutos	-9.88364
▁Ha	-9.88364
▁Julio	-9.88364
▁Llega	-9.88364
▁Lunes	-9.88364
▁Toda	-9.88364
▁WILLYREX:	-9.88364
▁aumentar	-9.88364
▁calor	-9.88364
▁comenzar	-9.88364
▁concurso	-9.88364
▁conmigo	-9.88364
▁creadores	-9.88364
▁demás	-9.88364
▁edad	-9.88364
▁explica	-9.88364
▁fan	-9.88364
▁línea	-9.88364
▁mantener	-9.88364
▁mayores	-9.88364
▁nada.	-9.88364
▁perfecta	-9.88364
▁podido	-9.88364
▁podrían	-9.88364
▁podéis	-9.88364
▁presentan	-9.88364
▁respuesta	-9.88364
▁seria	-9.88364
▁solicitar	-9.88364
▁sorteo	-9.88364
▁tenéis	-9.88364
▁usa	-9.88364
▁usando	-9.88364
▁velocidad	-9.88364
▁#EnPodemosTúDecides	-9.90426
▁#ForoPorElCambio	-9.90426
▁#SesióndeControl	-9.90426
▁#tecnología	-9.90426
▁.@marianorajoy:	-9.90426
▁Ahí	-9.90426
▁Domingo	-9.90426
▁Díaz	-9.90426
▁Hi	-9.90426
▁Like	-9.90426
▁Murder	-9.90426
▁Nintendo	-9.90426
▁Vía	-9.90426
▁Whatsapp	-9.90426
▁Xperia	-9.90426
▁becas	-9.90426
▁contacto	-9.90426
▁deseo	-9.90426
▁dio	-9.90426
▁euro	-9.90426
▁imposible	-9.90426
▁llaman	-9.90426
▁negro	-9.90426
▁ocurre	-9.90426
▁ojo	-9.90426
▁pasando	-9.90426
▁principio	-9.90426
▁salen	-9.90426
▁salido	-9.90426
▁siga	-9.90426
▁siguen	-9.90426
▁tenia	-9.90426
▁tiempos	-9.90426
▁vieja	-9.90426
▁¿qué	-9.90426
▁"Queremos	-9.92531
▁#BibliotecaUAM	-9.92531
▁2!	-9.92531
▁Seguimos	-9.92531
▁Según	-9.92531
▁También	-9.92531
▁Witcher	-9.92531
▁aire	-9.92531
▁caer	-9.92531
▁comunidad	-9.92531
▁correo	-9.92531
▁debemos	-9.92531
▁digital	-9.92531
▁diseño	-9.92531
▁dispositivos	-9.92531
▁duda	-9.92531
▁esperanza	-9.92531
▁familias	-9.92531
▁http://t.co/OP525tjwDE	-9.92531
▁iPad	-9.92531
▁lanzamiento	-9.92531
▁leche	-9.92531
▁morir	-9.92531
▁piensa	-9.92531
▁probar	-9.92531
▁quiera	-9.92531
▁recomiendo	-9.92531
▁responsabilidad	-9.92531
▁seguimos	-9.92531
▁semanas	-9.92531
▁vista	-9.92531
▁"Estamos	-9.94682
▁#UnasPrimariasParaGanar	-9.94682
▁@equipoGabilondo	-9.94682
▁Algunos	-9.94682
▁Comunidad	-9.94682
▁Island	-9.94682
▁Maps	-9.94682
▁Nosotros	-9.94682
▁Temporada	-9.94682
▁Tesla	-9.94682
▁VIDEO	-9.94682
▁avión	-9.94682
▁bien.	-9.94682
▁blog	-9.94682
▁cargo	-9.94682
▁chocolate	-9.94682
▁confianza	-9.94682
▁desarrollo	-9.94682
▁encuentra	-9.94682
▁friki	-9.94682
▁gente"	-9.94682
▁hacerte	-9.94682
▁juego?	-9.94682
▁origen	-9.94682
▁países	-9.94682
▁recordar	-9.94682
▁reproducción	-9.94682
▁socialista	-9.94682
▁solar	-9.94682
▁sube	-9.94682
▁temas	-9.94682
▁tuyo	-9.94682
▁universidad	-9.94682
▁"A	-9.9688
▁#GameInsight	-9.9688
▁#ParadiseIsland2	-9.9688
▁#juegos	-9.9688
▁....	-9.9688
▁100%	-9.9688
▁:D,	-9.9688
▁:D:	-9.9688
▁Antonio	-9.9688
▁Apple:	-9.9688
▁Autónoma	-9.9688
▁Paradise	-9.9688
▁Race:	-9.9688
▁Síguelo	-9.9688
▁TODO	-9.9688
▁Tsipras	-9.9688
▁Tú	-9.9688
▁USB	-9.9688
▁Va	-9.9688
▁Wars	-9.9688
▁acerca	-9.9688
▁actualización	-9.9688
▁and	-9.9688
▁ataque	-9.9688
▁años,	-9.9688
▁compañeros	-9.9688
▁condiciones	-9.9688
▁di	-9.9688
▁formas	-9.9688
▁gratuita	-9.9688
▁info	-9.9688
▁intento	-9.9688
▁investigación	-9.9688
▁mamá	-9.9688
▁mapas	-9.9688
▁marzo	-9.9688
▁mercado	-9.9688
▁ok	-9.9688
▁orgullo	-9.9688
▁piel	-9.9688
▁popular	-9.9688
▁prepara	-9.9688
▁página	-9.9688
▁responsable	-9.9688
▁resultado	-9.9688
▁rico	-9.9688
▁seguidores	-9.9688
▁tarea	-9.9688
▁venta	-9.9688
▁viejo	-9.9688
▁¡Enhorabuena	-9.9688
▁#FelizLunes	-9.99127
▁#InvertirEnPersonas	-9.99127
▁#RT	-9.99127
▁#iPhone	-9.99127
▁28	-9.99127
▁360	-9.99127
▁Gracias!	-9.99127
▁Junio	-9.99127
▁Recuerda	-9.99127
▁Ser	-9.99127
▁Tras	-9.99127
▁adelante	-9.99127
▁agosto	-9.99127
▁aprueba	-9.99127
▁atrás	-9.99127
▁comprado	-9.99127
▁compras	-9.99127
▁concierto	-9.99127
▁enero	-9.99127
▁enviar	-9.99127
▁errores	-9.99127
▁felices	-9.99127
▁fútbol	-9.99127
▁incluso	-9.99127
▁is	-9.99127
▁llena	-9.99127
▁minuto	-9.99127
▁niña	-9.99127
▁números	-9.99127
▁pasan	-9.99127
▁pienso	-9.99127
▁pinta	-9.99127
▁plaza	-9.99127
▁robot	-9.99127
▁sangre	-9.99127
▁siguiente	-9.99127
▁teclado	-9.99127
▁voluntad	-9.99127
▁votos	-9.99127
▁vuelo	-9.99127
▁}:P	-9.99127
▁#internet	-10.0143
▁*-*	-10.0143
▁2011	-10.0143
▁@3djuegos	-10.0143
▁Amo	-10.0143
▁Consulta	-10.0143
▁Final	-10.0143
▁Iglesias	-10.0143
▁MUY	-10.0143
▁Parlamento	-10.0143
▁Participa	-10.0143
▁Sol	-10.0143
▁Vaya	-10.0143
▁abril	-10.0143
▁actividades	-10.0143
▁an	-10.0143
▁apenas	-10.0143
▁atención	-10.0143
▁ay	-10.0143
▁ayuntamientos	-10.0143
▁campo	-10.0143
▁cierre	-10.0143
▁dormido	-10.0143
▁día,	-10.0143
▁eh	-10.0143
▁entender	-10.0143
▁escuchando	-10.0143
▁guapa	-10.0143
▁género	-10.0143
▁hubiera	-10.0143
▁interesa	-10.0143
▁k	-10.0143
▁opción	-10.0143
▁original	-10.0143
▁pareja	-10.0143
▁pequeña	-10.0143
▁públicos	-10.0143
▁quedar	-10.0143
▁reducir	-10.0143
▁rescate	-10.0143
▁siete	-10.0143
▁unidad	-10.0143
▁vida,	-10.0143
▁viste	-10.0143
▁vive	-10.0143
▁#OrgulloDeLaGente	-10.0378
▁#UAM,	-10.0378
▁#cine	-10.0378
▁.@sanchezcastejon	-10.0378
▁@HectordeLama	-10.0378
▁Algo	-10.0378
▁Buena	-10.0378
▁Ciencia	-10.0378
▁Claro	-10.0378
▁Constitución	-10.0378
▁Cosas	-10.0378
▁II	-10.0378
▁MEJOR	-10.0378
▁Menos	-10.0378
▁Otra	-10.0378
▁Plaza	-10.0378
▁Presidente	-10.0378
▁SOY	-10.0378
▁Tronos	-10.0378
▁Viendo	-10.0378
▁alcohol	-10.0378
▁alimentos	-10.0378
▁anuncio	-10.0378
▁años.	-10.0378
▁ciudades	-10.0378
▁compartir	-10.0378
▁conexión	-10.0378
▁culo	-10.0378
▁cursos	-10.0378
▁directo:	-10.0378
▁ello	-10.0378
▁enfermedad	-10.0378
▁explicar	-10.0378
▁intentar	-10.0378
▁internacional	-10.0378
▁ja	-10.0378
▁maquillaje	-10.0378
▁miles	-10.0378
▁mio	-10.0378
▁novedades	-10.0378
▁oportunidades	-10.0378
▁propia	-10.0378
▁regreso	-10.0378
▁récord	-10.0378
▁seas	-10.0378
▁solicitud	-10.0378
▁solución	-10.0378
▁tarjeta	-10.0378
▁tío	-10.0378
▁utilizar	-10.0378
▁¡Ya	-10.0378
▁"Con	-10.0619
▁"Tenemos	-10.0619
▁#empleo	-10.0619
▁#g3ntigaan	-10.0619
▁.-	-10.0619
▁.@JavierMaroto	-10.0619
▁Análisis	-10.0619
▁Ashley	-10.0619
▁Entrevista	-10.0619
▁Igual	-10.0619
▁Política	-10.0619
▁Race	-10.0619
▁Tiene	-10.0619
▁Vota	-10.0619
▁aburrido	-10.0619
▁accidente	-10.0619
▁agenda	-10.0619
▁ando	-10.0619
▁aparece	-10.0619
▁ciclo	-10.0619
▁cinco	-10.0619
▁comience	-10.0619
▁contratos	-10.0619
▁cuestión	-10.0619
▁hambre	-10.0619
▁hermana	-10.0619
▁homenaje	-10.0619
▁horas.	-10.0619
▁hoy.	-10.0619
▁informático	-10.0619
▁jornada	-10.0619
▁jugado	-10.0619
▁lanzará	-10.0619
▁llorar	-10.0619
▁mapa	-10.0619
▁muerto	-10.0619
▁parar	-10.0619
▁pizza	-10.0619
▁protección	-10.0619
▁referéndum	-10.0619
▁reglas	-10.0619
▁ropa	-10.0619
▁temprano	-10.0619
▁total	-10.0619
▁¿Aún	-10.0619
▁#EmPPleo	-10.0866
▁#gadgets	-10.0866
▁#malware	-10.0866
▁200	-10.0866
▁@CBescansa	-10.0866
▁Estudios	-10.0866
▁Marte	-10.0866
▁Orgullo	-10.0866
▁Primer	-10.0866
▁Sobre	-10.0866
▁Starbreeze	-10.0866
▁Tienes	-10.0866
▁Tres	-10.0866
▁Wii	-10.0866
▁actividad	-10.0866
▁alto	-10.0866
▁charla	-10.0866
▁cierto,	-10.0866
▁combatir	-10.0866
▁conozco	-10.0866
▁contar	-10.0866
▁convocatoria	-10.0866
▁efectos	-10.0866
▁encontrado	-10.0866
